#pragma once
/*
 * tinyml_model.h  —  AUTO-GENERATED  —  DO NOT EDIT BY HAND
 *
 * Source:      C:\Users\HP\iot_EL\models\model.tflite
 * Generated:   2026-05-02 11:24:37
 * Model size:  3244 bytes (3.2 KB)
 *
 * Architecture: 3-layer MLP
 *   Input(3) → Dense(16, ReLU) → Dense(8, ReLU) → Dense(3, Softmax)
 *
 * To regenerate:
 *   python models/model_training.py
 *   python models/model_converter.py
 */

alignas(8) const unsigned char g_model[] = {
  0x1c, 0x00, 0x00, 0x00, 0x54, 0x46, 0x4c, 0x33, 0x14, 0x00, 0x20, 0x00,
  0x1c, 0x00, 0x18, 0x00, 0x14, 0x00, 0x10, 0x00, 0x0c, 0x00, 0x00, 0x00,
  0x08, 0x00, 0x04, 0x00, 0x14, 0x00, 0x00, 0x00, 0x1c, 0x00, 0x00, 0x00,
  0x98, 0x00, 0x00, 0x00, 0xf0, 0x00, 0x00, 0x00, 0x9c, 0x05, 0x00, 0x00,
  0xac, 0x05, 0x00, 0x00, 0x48, 0x0c, 0x00, 0x00, 0x03, 0x00, 0x00, 0x00,
  0x01, 0x00, 0x00, 0x00, 0x10, 0x00, 0x00, 0x00, 0x00, 0x00, 0x0a, 0x00,
  0x10, 0x00, 0x0c, 0x00, 0x08, 0x00, 0x04, 0x00, 0x0a, 0x00, 0x00, 0x00,
  0x0c, 0x00, 0x00, 0x00, 0x1c, 0x00, 0x00, 0x00, 0x3c, 0x00, 0x00, 0x00,
  0x0f, 0x00, 0x00, 0x00, 0x73, 0x65, 0x72, 0x76, 0x69, 0x6e, 0x67, 0x5f,
  0x64, 0x65, 0x66, 0x61, 0x75, 0x6c, 0x74, 0x00, 0x01, 0x00, 0x00, 0x00,
  0x04, 0x00, 0x00, 0x00, 0x90, 0xff, 0xff, 0xff, 0x0a, 0x00, 0x00, 0x00,
  0x04, 0x00, 0x00, 0x00, 0x08, 0x00, 0x00, 0x00, 0x6f, 0x75, 0x74, 0x70,
  0x75, 0x74, 0x5f, 0x30, 0x00, 0x00, 0x00, 0x00, 0x01, 0x00, 0x00, 0x00,
  0x04, 0x00, 0x00, 0x00, 0x4a, 0xfa, 0xff, 0xff, 0x04, 0x00, 0x00, 0x00,
  0x0c, 0x00, 0x00, 0x00, 0x6b, 0x65, 0x72, 0x61, 0x73, 0x5f, 0x74, 0x65,
  0x6e, 0x73, 0x6f, 0x72, 0x00, 0x00, 0x00, 0x00, 0x02, 0x00, 0x00, 0x00,
  0x34, 0x00, 0x00, 0x00, 0x04, 0x00, 0x00, 0x00, 0xdc, 0xff, 0xff, 0xff,
  0x0d, 0x00, 0x00, 0x00, 0x04, 0x00, 0x00, 0x00, 0x13, 0x00, 0x00, 0x00,
  0x43, 0x4f, 0x4e, 0x56, 0x45, 0x52, 0x53, 0x49, 0x4f, 0x4e, 0x5f, 0x4d,
  0x45, 0x54, 0x41, 0x44, 0x41, 0x54, 0x41, 0x00, 0x08, 0x00, 0x0c, 0x00,
  0x08, 0x00, 0x04, 0x00, 0x08, 0x00, 0x00, 0x00, 0x0c, 0x00, 0x00, 0x00,
  0x04, 0x00, 0x00, 0x00, 0x13, 0x00, 0x00, 0x00, 0x6d, 0x69, 0x6e, 0x5f,
  0x72, 0x75, 0x6e, 0x74, 0x69, 0x6d, 0x65, 0x5f, 0x76, 0x65, 0x72, 0x73,
  0x69, 0x6f, 0x6e, 0x00, 0x0e, 0x00, 0x00, 0x00, 0xa8, 0x04, 0x00, 0x00,
  0xa0, 0x04, 0x00, 0x00, 0x70, 0x04, 0x00, 0x00, 0x54, 0x04, 0x00, 0x00,
  0xe4, 0x03, 0x00, 0x00, 0xd4, 0x01, 0x00, 0x00, 0x04, 0x01, 0x00, 0x00,
  0xb4, 0x00, 0x00, 0x00, 0xac, 0x00, 0x00, 0x00, 0xa4, 0x00, 0x00, 0x00,
  0x9c, 0x00, 0x00, 0x00, 0x94, 0x00, 0x00, 0x00, 0x74, 0x00, 0x00, 0x00,
  0x04, 0x00, 0x00, 0x00, 0xfe, 0xfa, 0xff, 0xff, 0x04, 0x00, 0x00, 0x00,
  0x60, 0x00, 0x00, 0x00, 0x10, 0x00, 0x00, 0x00, 0x00, 0x00, 0x00, 0x00,
  0x08, 0x00, 0x0e, 0x00, 0x08, 0x00, 0x04, 0x00, 0x08, 0x00, 0x00, 0x00,
  0x10, 0x00, 0x00, 0x00, 0x24, 0x00, 0x00, 0x00, 0x00, 0x00, 0x06, 0x00,
  0x08, 0x00, 0x04, 0x00, 0x06, 0x00, 0x00, 0x00, 0x04, 0x00, 0x00, 0x00,
  0x00, 0x00, 0x00, 0x00, 0x0c, 0x00, 0x18, 0x00, 0x14, 0x00, 0x10, 0x00,
  0x0c, 0x00, 0x04, 0x00, 0x0c, 0x00, 0x00, 0x00, 0xd1, 0xb1, 0x7d, 0xeb,
  0x93, 0x52, 0xac, 0x20, 0x02, 0x00, 0x00, 0x00, 0x02, 0x00, 0x00, 0x00,
  0x04, 0x00, 0x00, 0x00, 0x06, 0x00, 0x00, 0x00, 0x32, 0x2e, 0x32, 0x31,
  0x2e, 0x30, 0x00, 0x00, 0x6a, 0xfb, 0xff, 0xff, 0x04, 0x00, 0x00, 0x00,
  0x10, 0x00, 0x00, 0x00, 0x31, 0x2e, 0x35, 0x2e, 0x30, 0x00, 0x00, 0x00,
  0x00, 0x00, 0x00, 0x00, 0x00, 0x00, 0x00, 0x00, 0x98, 0xf5, 0xff, 0xff,
  0x9c, 0xf5, 0xff, 0xff, 0xa0, 0xf5, 0xff, 0xff, 0xa4, 0xf5, 0xff, 0xff,
  0x96, 0xfb, 0xff, 0xff, 0x04, 0x00, 0x00, 0x00, 0x40, 0x00, 0x00, 0x00,
  0x00, 0x00, 0x00, 0x00, 0x68, 0x45, 0xb6, 0x3e, 0xc0, 0x11, 0xc4, 0x3e,
  0x4b, 0x1a, 0xf7, 0x3e, 0x9a, 0xc4, 0xf7, 0xbd, 0x26, 0x04, 0x1e, 0xbe,
  0x00, 0x00, 0x00, 0x00, 0x00, 0x00, 0x00, 0x00, 0xbe, 0x15, 0xda, 0x3e,
  0xe9, 0x6c, 0x0b, 0x3f, 0x00, 0x00, 0x00, 0x00, 0x08, 0x3e, 0xba, 0xbd,
  0x00, 0x00, 0x00, 0x00, 0x2f, 0x32, 0x9b, 0xbe, 0xfb, 0x26, 0xb6, 0x3e,
  0x00, 0x00, 0x00, 0x00, 0xe2, 0xfb, 0xff, 0xff, 0x04, 0x00, 0x00, 0x00,
  0xc0, 0x00, 0x00, 0x00, 0x40, 0xb2, 0x7a, 0x3c, 0xb8, 0xfb, 0xbf, 0xbd,
  0x4d, 0x8b, 0x0c, 0xbf, 0x9c, 0xde, 0xf1, 0xbe, 0x7f, 0xd0, 0x03, 0x3b,
  0x15, 0x22, 0x49, 0x3f, 0xb8, 0x26, 0x21, 0x3f, 0x45, 0x15, 0x60, 0x3f,
  0x53, 0x4a, 0xe7, 0x3e, 0x56, 0x6d, 0xe8, 0xbe, 0x89, 0x93, 0xb2, 0x3e,
  0x3b, 0xf7, 0x5c, 0x3f, 0x95, 0x5f, 0x02, 0x3f, 0xb7, 0x93, 0x79, 0x3f,
  0x82, 0x21, 0x08, 0xbf, 0x11, 0x9b, 0x37, 0x3f, 0xd6, 0x2a, 0x21, 0x3f,
  0xbe, 0xf3, 0x26, 0xbf, 0xc0, 0x62, 0xcd, 0xbc, 0x3a, 0xf6, 0xb9, 0xbe,
  0x80, 0xa6, 0x77, 0xbd, 0xd8, 0x3e, 0x5e, 0xbe, 0x70, 0x30, 0xed, 0xbe,
  0xb3, 0xfe, 0xe2, 0xbe, 0x87, 0x89, 0x43, 0xbf, 0x13, 0xbe, 0x45, 0x3e,
  0xff, 0x4d, 0x4a, 0x3f, 0xc1, 0x45, 0x05, 0xbf, 0x3f, 0x24, 0x52, 0xbe,
  0xc9, 0xe7, 0x35, 0x3f, 0x22, 0xf7, 0x9d, 0xbe, 0x20, 0x08, 0xea, 0xbc,
  0x2c, 0x7f, 0xc4, 0xbe, 0x6e, 0x1a, 0x3a, 0x3f, 0xad, 0xba, 0x4d, 0x3e,
  0x21, 0x92, 0x0c, 0xbf, 0xa2, 0x36, 0x1a, 0xbe, 0x74, 0xdc, 0x2e, 0xbe,
  0xa1, 0x63, 0xf2, 0xbe, 0x0c, 0x8c, 0x8b, 0x3d, 0x3a, 0x44, 0x47, 0x3f,
  0x44, 0xe2, 0x76, 0x3d, 0xb7, 0xbb, 0x6b, 0xbe, 0xeb, 0x46, 0xe3, 0x3c,
  0xe3, 0xa0, 0xff, 0x3e, 0x80, 0x82, 0x36, 0xbd, 0x44, 0x08, 0x98, 0xbd,
  0x80, 0x57, 0x53, 0x3c, 0xae, 0xfc, 0xff, 0xff, 0x04, 0x00, 0x00, 0x00,
  0x00, 0x02, 0x00, 0x00, 0x80, 0xac, 0xca, 0xbe, 0x16, 0x4b, 0xba, 0xbe,
  0xcc, 0xa8, 0x81, 0x3e, 0xb8, 0x61, 0xed, 0x3d, 0xe9, 0x28, 0x5c, 0x3f,
  0x0d, 0xf5, 0x5e, 0x3f, 0xd0, 0xbd, 0x53, 0xbe, 0xe8, 0xd7, 0x55, 0xbe,
  0x20, 0x97, 0x6e, 0x3d, 0x46, 0x06, 0xce, 0xbe, 0x20, 0xa7, 0x99, 0xbd,
  0x30, 0x5a, 0xf7, 0x3e, 0x80, 0xc2, 0x45, 0xbd, 0x7d, 0xac, 0xdf, 0x3e,
  0x0b, 0xed, 0xcc, 0xbd, 0x00, 0x10, 0xa1, 0xbe, 0xa0, 0x0b, 0x1b, 0x3e,
  0x69, 0x27, 0x87, 0xbe, 0x63, 0x2e, 0x35, 0x3f, 0x6a, 0xca, 0x25, 0xbe,
  0x02, 0xc0, 0x8d, 0x3e, 0xe2, 0x64, 0x18, 0x3f, 0xf0, 0x13, 0x2e, 0x3e,
  0x28, 0x80, 0xca, 0xbe, 0x83, 0x03, 0x49, 0xbe, 0x52, 0xed, 0x88, 0xbf,
  0x20, 0xa7, 0x61, 0x3e, 0xf6, 0x95, 0x60, 0x3f, 0x88, 0xe1, 0x7b, 0x3e,
  0x81, 0x75, 0x25, 0x3f, 0x8b, 0x5f, 0xb2, 0xbe, 0x40, 0x23, 0xa1, 0xbd,
  0xd0, 0xef, 0xd4, 0xbd, 0x80, 0x90, 0x4e, 0x3c, 0x28, 0x84, 0xd8, 0xbe,
  0xc0, 0x6a, 0x82, 0xbe, 0xcc, 0xfc, 0xa0, 0xbe, 0x14, 0xbd, 0xb0, 0x3e,
  0xd4, 0x63, 0xdd, 0xbe, 0x60, 0x1f, 0xb8, 0xbe, 0x1c, 0xc5, 0xf7, 0xbe,
  0x88, 0x2c, 0xc0, 0xbe, 0xd0, 0x14, 0x1d, 0x3e, 0x68, 0xbb, 0xe4, 0x3e,
  0x80, 0xb7, 0xf2, 0xbc, 0xa4, 0xe7, 0xb6, 0x3e, 0x00, 0x5f, 0x31, 0xbc,
  0x88, 0x7c, 0x54, 0x3e, 0x20, 0x72, 0x65, 0x3e, 0xbe, 0x87, 0x10, 0x3f,
  0x85, 0x22, 0x21, 0x3f, 0x33, 0xee, 0x54, 0x3f, 0xbd, 0x4f, 0x1d, 0xbe,
  0xf5, 0x49, 0x5e, 0xbf, 0xd4, 0x9a, 0x8b, 0x3e, 0x20, 0x96, 0xad, 0x3d,
  0xc9, 0xa0, 0xa8, 0x3e, 0xf4, 0x8b, 0x30, 0x3f, 0x48, 0xf4, 0xba, 0x3e,
  0x4a, 0x41, 0x75, 0xbf, 0xf0, 0xaa, 0xbe, 0x3d, 0x7b, 0xdc, 0xfc, 0xbe,
  0x1c, 0x71, 0x16, 0x3f, 0x70, 0x87, 0x96, 0xbe, 0x00, 0xce, 0x79, 0xbb,
  0x97, 0xf9, 0x8f, 0x3e, 0xc0, 0xe7, 0x45, 0xbd, 0xd7, 0xfd, 0x4d, 0x3e,
  0xc1, 0x89, 0xeb, 0x3e, 0xbf, 0x30, 0xb4, 0x3e, 0x0c, 0x3c, 0xf6, 0xbe,
  0x84, 0xdb, 0xf2, 0x3e, 0x32, 0x92, 0x1a, 0xbf, 0xa5, 0xe3, 0x9c, 0xbe,
  0x30, 0x79, 0xaf, 0x3d, 0x90, 0x52, 0x5d, 0x3f, 0xa0, 0x69, 0x78, 0xbe,
  0x97, 0xe5, 0x2a, 0x3f, 0x81, 0xd2, 0xcc, 0x3e, 0xb8, 0x53, 0x17, 0xbe,
  0x14, 0xc1, 0xc7, 0x3e, 0xe8, 0xe7, 0x7f, 0xbe, 0xf0, 0x01, 0xa6, 0xbe,
  0x00, 0x03, 0x96, 0x3c, 0x30, 0xc1, 0x3d, 0xbe, 0x18, 0x00, 0x6b, 0x3e,
  0x44, 0xf8, 0xa2, 0x3e, 0x40, 0x0e, 0xf1, 0x3c, 0x50, 0x1a, 0xf0, 0x3d,
  0x20, 0x0b, 0x8d, 0xbe, 0x20, 0x76, 0xb6, 0xbd, 0xd4, 0xfb, 0x95, 0x3e,
  0xf0, 0x29, 0xb6, 0xbe, 0xc8, 0xfc, 0xf3, 0x3e, 0x5c, 0xc3, 0xaa, 0xbe,
  0x98, 0x2d, 0x77, 0xbe, 0x68, 0xc5, 0x31, 0x3e, 0xbf, 0x7f, 0xed, 0xbe,
  0x04, 0xd4, 0xb3, 0xbe, 0xe7, 0xea, 0x48, 0x3e, 0xcd, 0x2a, 0x82, 0x3c,
  0xa3, 0x2a, 0x86, 0x3e, 0xac, 0xd2, 0xc0, 0xbe, 0x48, 0x89, 0x29, 0x3e,
  0x83, 0xe9, 0xd6, 0xbe, 0x34, 0xdf, 0x93, 0x3e, 0xd8, 0x4b, 0xd1, 0xbe,
  0x57, 0x54, 0x04, 0xbf, 0xc0, 0x71, 0xf5, 0xbd, 0x84, 0x8e, 0x01, 0xbf,
  0x67, 0xba, 0x35, 0x3e, 0xbc, 0xf2, 0xd6, 0xbe, 0x1c, 0x81, 0xf4, 0x3e,
  0x75, 0xb0, 0x4d, 0xbf, 0x22, 0xae, 0x53, 0x3e, 0xa5, 0x14, 0x4d, 0xbe,
  0x9b, 0xca, 0x51, 0x3f, 0xa6, 0x7a, 0x9b, 0x3e, 0xcc, 0xc7, 0x85, 0xbe,
  0x60, 0x37, 0xcf, 0x3e, 0xda, 0x3b, 0x48, 0xbf, 0x16, 0x9d, 0x18, 0xbf,
  0x1c, 0x79, 0xdc, 0xbe, 0x6f, 0xb3, 0x9d, 0x3e, 0x78, 0x6a, 0x26, 0x3e,
  0x5b, 0x88, 0x3b, 0x3e, 0x95, 0xc2, 0x08, 0xbe, 0x78, 0x19, 0x1a, 0xbe,
  0xba, 0xfe, 0xff, 0xff, 0x04, 0x00, 0x00, 0x00, 0x60, 0x00, 0x00, 0x00,
  0x87, 0x5d, 0xa7, 0xbf, 0x92, 0x77, 0xa3, 0xbf, 0xd6, 0x6c, 0xd6, 0x3e,
  0x87, 0xc5, 0x7f, 0x3f, 0x34, 0x7e, 0xdb, 0xbe, 0xb0, 0x6c, 0x74, 0x3e,
  0x77, 0x3d, 0x8a, 0x3e, 0x16, 0x59, 0xe1, 0xbe, 0x1b, 0x3e, 0xf3, 0x3e,
  0xfd, 0x0f, 0x24, 0x3d, 0xfa, 0xe7, 0x08, 0xbf, 0x8b, 0x2d, 0xf1, 0xbd,
  0x4e, 0x6d, 0x30, 0x3f, 0x52, 0xa1, 0x93, 0x3e, 0x12, 0xef, 0x09, 0x3f,
  0x4d, 0xff, 0x5b, 0xbf, 0x19, 0xc9, 0xb0, 0xbc, 0xb9, 0x93, 0x68, 0x3f,
  0x5c, 0xcb, 0x77, 0x3e, 0x99, 0x9b, 0x9c, 0xbf, 0x8d, 0x9f, 0x2a, 0x3f,
  0xd3, 0xb9, 0xaa, 0xbe, 0x19, 0x2d, 0x01, 0xbf, 0xf5, 0x98, 0x84, 0x3f,
  0x26, 0xff, 0xff, 0xff, 0x04, 0x00, 0x00, 0x00, 0x0c, 0x00, 0x00, 0x00,
  0x5e, 0x3d, 0x80, 0x3e, 0x50, 0xa0, 0xc5, 0x3c, 0x60, 0x00, 0xa7, 0xbe,
  0x3e, 0xff, 0xff, 0xff, 0x04, 0x00, 0x00, 0x00, 0x20, 0x00, 0x00, 0x00,
  0xdb, 0x07, 0xc8, 0x3d, 0xd8, 0x44, 0x2b, 0xbe, 0x00, 0x00, 0x00, 0x00,
  0x63, 0xfc, 0xc7, 0x3e, 0xb0, 0x7a, 0x18, 0xbe, 0x00, 0x00, 0x00, 0x00,
  0xa0, 0x0a, 0xee, 0xbc, 0x4a, 0x8c, 0xe3, 0xbd, 0x7c, 0xf9, 0xff, 0xff,
  0x80, 0xf9, 0xff, 0xff, 0x0f, 0x00, 0x00, 0x00, 0x4d, 0x4c, 0x49, 0x52,
  0x20, 0x43, 0x6f, 0x6e, 0x76, 0x65, 0x72, 0x74, 0x65, 0x64, 0x2e, 0x00,
  0x01, 0x00, 0x00, 0x00, 0x14, 0x00, 0x00, 0x00, 0x00, 0x00, 0x0e, 0x00,
  0x18, 0x00, 0x14, 0x00, 0x10, 0x00, 0x0c, 0x00, 0x08, 0x00, 0x04, 0x00,
  0x0e, 0x00, 0x00, 0x00, 0x14, 0x00, 0x00, 0x00, 0x1c, 0x00, 0x00, 0x00,
  0x34, 0x01, 0x00, 0x00, 0x38, 0x01, 0x00, 0x00, 0x3c, 0x01, 0x00, 0x00,
  0x04, 0x00, 0x00, 0x00, 0x6d, 0x61, 0x69, 0x6e, 0x00, 0x00, 0x00, 0x00,
  0x04, 0x00, 0x00, 0x00, 0xdc, 0x00, 0x00, 0x00, 0x94, 0x00, 0x00, 0x00,
  0x50, 0x00, 0x00, 0x00, 0x14, 0x00, 0x00, 0x00, 0x00, 0x00, 0x0e, 0x00,
  0x1a, 0x00, 0x14, 0x00, 0x10, 0x00, 0x0c, 0x00, 0x0b, 0x00, 0x04, 0x00,
  0x0e, 0x00, 0x00, 0x00, 0x1c, 0x00, 0x00, 0x00, 0x00, 0x00, 0x00, 0x09,
  0x1c, 0x00, 0x00, 0x00, 0x20, 0x00, 0x00, 0x00, 0x01, 0x00, 0x00, 0x00,
  0x00, 0x00, 0x06, 0x00, 0x08, 0x00, 0x04, 0x00, 0x06, 0x00, 0x00, 0x00,
  0x00, 0x00, 0x80, 0x3f, 0x01, 0x00, 0x00, 0x00, 0x0a, 0x00, 0x00, 0x00,
  0x01, 0x00, 0x00, 0x00, 0x09, 0x00, 0x00, 0x00, 0xce, 0xff, 0xff, 0xff,
  0x10, 0x00, 0x00, 0x00, 0x00, 0x00, 0x00, 0x08, 0x0c, 0x00, 0x00, 0x00,
  0x10, 0x00, 0x00, 0x00, 0x44, 0xfa, 0xff, 0xff, 0x01, 0x00, 0x00, 0x00,
  0x09, 0x00, 0x00, 0x00, 0x03, 0x00, 0x00, 0x00, 0x08, 0x00, 0x00, 0x00,
  0x03, 0x00, 0x00, 0x00, 0x02, 0x00, 0x00, 0x00, 0x00, 0x00, 0x0e, 0x00,
  0x14, 0x00, 0x00, 0x00, 0x10, 0x00, 0x0c, 0x00, 0x0b, 0x00, 0x04, 0x00,
  0x0e, 0x00, 0x00, 0x00, 0x10, 0x00, 0x00, 0x00, 0x00, 0x00, 0x00, 0x08,
  0x10, 0x00, 0x00, 0x00, 0x14, 0x00, 0x00, 0x00, 0xba, 0xff, 0xff, 0xff,
  0x00, 0x00, 0x00, 0x01, 0x01, 0x00, 0x00, 0x00, 0x08, 0x00, 0x00, 0x00,
  0x03, 0x00, 0x00, 0x00, 0x07, 0x00, 0x00, 0x00, 0x04, 0x00, 0x00, 0x00,
  0x01, 0x00, 0x00, 0x00, 0x00, 0x00, 0x0e, 0x00, 0x16, 0x00, 0x00, 0x00,
  0x10, 0x00, 0x0c, 0x00, 0x0b, 0x00, 0x04, 0x00, 0x0e, 0x00, 0x00, 0x00,
  0x18, 0x00, 0x00, 0x00, 0x00, 0x00, 0x00, 0x08, 0x18, 0x00, 0x00, 0x00,
  0x1c, 0x00, 0x00, 0x00, 0x00, 0x00, 0x06, 0x00, 0x08, 0x00, 0x07, 0x00,
  0x06, 0x00, 0x00, 0x00, 0x00, 0x00, 0x00, 0x01, 0x01, 0x00, 0x00, 0x00,
  0x07, 0x00, 0x00, 0x00, 0x03, 0x00, 0x00, 0x00, 0x00, 0x00, 0x00, 0x00,
  0x05, 0x00, 0x00, 0x00, 0x06, 0x00, 0x00, 0x00, 0x01, 0x00, 0x00, 0x00,
  0x0a, 0x00, 0x00, 0x00, 0x01, 0x00, 0x00, 0x00, 0x00, 0x00, 0x00, 0x00,
  0x0b, 0x00, 0x00, 0x00, 0xd4, 0x04, 0x00, 0x00, 0x40, 0x04, 0x00, 0x00,
  0xd4, 0x03, 0x00, 0x00, 0x7c, 0x03, 0x00, 0x00, 0x24, 0x03, 0x00, 0x00,
  0xcc, 0x02, 0x00, 0x00, 0x54, 0x02, 0x00, 0x00, 0xa4, 0x01, 0x00, 0x00,
  0xf0, 0x00, 0x00, 0x00, 0x60, 0x00, 0x00, 0x00, 0x04, 0x00, 0x00, 0x00,
  0x6e, 0xfb, 0xff, 0xff, 0x00, 0x00, 0x00, 0x01, 0x14, 0x00, 0x00, 0x00,
  0x1c, 0x00, 0x00, 0x00, 0x1c, 0x00, 0x00, 0x00, 0x0b, 0x00, 0x00, 0x00,
  0x34, 0x00, 0x00, 0x00, 0x02, 0x00, 0x00, 0x00, 0xff, 0xff, 0xff, 0xff,
  0x03, 0x00, 0x00, 0x00, 0x58, 0xfb, 0xff, 0xff, 0x1b, 0x00, 0x00, 0x00,
  0x53, 0x74, 0x61, 0x74, 0x65, 0x66, 0x75, 0x6c, 0x50, 0x61, 0x72, 0x74,
  0x69, 0x74, 0x69, 0x6f, 0x6e, 0x65, 0x64, 0x43, 0x61, 0x6c, 0x6c, 0x5f,
  0x31, 0x3a, 0x30, 0x00, 0x02, 0x00, 0x00, 0x00, 0x01, 0x00, 0x00, 0x00,
  0x03, 0x00, 0x00, 0x00, 0xc6, 0xfb, 0xff, 0xff, 0x00, 0x00, 0x00, 0x01,
  0x14, 0x00, 0x00, 0x00, 0x1c, 0x00, 0x00, 0x00, 0x1c, 0x00, 0x00, 0x00,
  0x0a, 0x00, 0x00, 0x00, 0x68, 0x00, 0x00, 0x00, 0x02, 0x00, 0x00, 0x00,
  0xff, 0xff, 0xff, 0xff, 0x03, 0x00, 0x00, 0x00, 0xb0, 0xfb, 0xff, 0xff,
  0x4e, 0x00, 0x00, 0x00, 0x69, 0x6f, 0x74, 0x5f, 0x72, 0x69, 0x73, 0x6b,
  0x5f, 0x63, 0x6c, 0x61, 0x73, 0x73, 0x69, 0x66, 0x69, 0x65, 0x72, 0x5f,
  0x31, 0x2f, 0x64, 0x65, 0x6e, 0x73, 0x65, 0x5f, 0x32, 0x5f, 0x31, 0x2f,
  0x4d, 0x61, 0x74, 0x4d, 0x75, 0x6c, 0x3b, 0x69, 0x6f, 0x74, 0x5f, 0x72,
  0x69, 0x73, 0x6b, 0x5f, 0x63, 0x6c, 0x61, 0x73, 0x73, 0x69, 0x66, 0x69,
  0x65, 0x72, 0x5f, 0x31, 0x2f, 0x64, 0x65, 0x6e, 0x73, 0x65, 0x5f, 0x32,
  0x5f, 0x31, 0x2f, 0x42, 0x69, 0x61, 0x73, 0x41, 0x64, 0x64, 0x00, 0x00,
  0x02, 0x00, 0x00, 0x00, 0x01, 0x00, 0x00, 0x00, 0x03, 0x00, 0x00, 0x00,
  0x52, 0xfc, 0xff, 0xff, 0x00, 0x00, 0x00, 0x01, 0x14, 0x00, 0x00, 0x00,
  0x1c, 0x00, 0x00, 0x00, 0x1c, 0x00, 0x00, 0x00, 0x09, 0x00, 0x00, 0x00,
  0x8c, 0x00, 0x00, 0x00, 0x02, 0x00, 0x00, 0x00, 0xff, 0xff, 0xff, 0xff,
  0x08, 0x00, 0x00, 0x00, 0x3c, 0xfc, 0xff, 0xff, 0x73, 0x00, 0x00, 0x00,
  0x69, 0x6f, 0x74, 0x5f, 0x72, 0x69, 0x73, 0x6b, 0x5f, 0x63, 0x6c, 0x61,
  0x73, 0x73, 0x69, 0x66, 0x69, 0x65, 0x72, 0x5f, 0x31, 0x2f, 0x64, 0x65,
  0x6e, 0x73, 0x65, 0x5f, 0x31, 0x5f, 0x32, 0x2f, 0x4d, 0x61, 0x74, 0x4d,
  0x75, 0x6c, 0x3b, 0x69, 0x6f, 0x74, 0x5f, 0x72, 0x69, 0x73, 0x6b, 0x5f,
  0x63, 0x6c, 0x61, 0x73, 0x73, 0x69, 0x66, 0x69, 0x65, 0x72, 0x5f, 0x31,
  0x2f, 0x64, 0x65, 0x6e, 0x73, 0x65, 0x5f, 0x31, 0x5f, 0x32, 0x2f, 0x52,
  0x65, 0x6c, 0x75, 0x3b, 0x69, 0x6f, 0x74, 0x5f, 0x72, 0x69, 0x73, 0x6b,
  0x5f, 0x63, 0x6c, 0x61, 0x73, 0x73, 0x69, 0x66, 0x69, 0x65, 0x72, 0x5f,
  0x31, 0x2f, 0x64, 0x65, 0x6e, 0x73, 0x65, 0x5f, 0x31, 0x5f, 0x32, 0x2f,
  0x42, 0x69, 0x61, 0x73, 0x41, 0x64, 0x64, 0x00, 0x02, 0x00, 0x00, 0x00,
  0x01, 0x00, 0x00, 0x00, 0x08, 0x00, 0x00, 0x00, 0x02, 0xfd, 0xff, 0xff,
  0x00, 0x00, 0x00, 0x01, 0x14, 0x00, 0x00, 0x00, 0x1c, 0x00, 0x00, 0x00,
  0x1c, 0x00, 0x00, 0x00, 0x08, 0x00, 0x00, 0x00, 0x88, 0x00, 0x00, 0x00,
  0x02, 0x00, 0x00, 0x00, 0xff, 0xff, 0xff, 0xff, 0x10, 0x00, 0x00, 0x00,
  0xec, 0xfc, 0xff, 0xff, 0x6d, 0x00, 0x00, 0x00, 0x69, 0x6f, 0x74, 0x5f,
  0x72, 0x69, 0x73, 0x6b, 0x5f, 0x63, 0x6c, 0x61, 0x73, 0x73, 0x69, 0x66,
  0x69, 0x65, 0x72, 0x5f, 0x31, 0x2f, 0x64, 0x65, 0x6e, 0x73, 0x65, 0x5f,
  0x31, 0x2f, 0x4d, 0x61, 0x74, 0x4d, 0x75, 0x6c, 0x3b, 0x69, 0x6f, 0x74,
  0x5f, 0x72, 0x69, 0x73, 0x6b, 0x5f, 0x63, 0x6c, 0x61, 0x73, 0x73, 0x69,
  0x66, 0x69, 0x65, 0x72, 0x5f, 0x31, 0x2f, 0x64, 0x65, 0x6e, 0x73, 0x65,
  0x5f, 0x31, 0x2f, 0x52, 0x65, 0x6c, 0x75, 0x3b, 0x69, 0x6f, 0x74, 0x5f,
  0x72, 0x69, 0x73, 0x6b, 0x5f, 0x63, 0x6c, 0x61, 0x73, 0x73, 0x69, 0x66,
  0x69, 0x65, 0x72, 0x5f, 0x31, 0x2f, 0x64, 0x65, 0x6e, 0x73, 0x65, 0x5f,
  0x31, 0x2f, 0x42, 0x69, 0x61, 0x73, 0x41, 0x64, 0x64, 0x00, 0x00, 0x00,
  0x02, 0x00, 0x00, 0x00, 0x01, 0x00, 0x00, 0x00, 0x10, 0x00, 0x00, 0x00,
  0x3e, 0xfe, 0xff, 0xff, 0x00, 0x00, 0x00, 0x01, 0x10, 0x00, 0x00, 0x00,
  0x10, 0x00, 0x00, 0x00, 0x07, 0x00, 0x00, 0x00, 0x58, 0x00, 0x00, 0x00,
  0x88, 0xfd, 0xff, 0xff, 0x48, 0x00, 0x00, 0x00, 0x69, 0x6f, 0x74, 0x5f,
  0x72, 0x69, 0x73, 0x6b, 0x5f, 0x63, 0x6c, 0x61, 0x73, 0x73, 0x69, 0x66,
  0x69, 0x65, 0x72, 0x5f, 0x31, 0x2f, 0x64, 0x65, 0x6e, 0x73, 0x65, 0x5f,
  0x31, 0x2f, 0x52, 0x65, 0x6c, 0x75, 0x3b, 0x69, 0x6f, 0x74, 0x5f, 0x72,
  0x69, 0x73, 0x6b, 0x5f, 0x63, 0x6c, 0x61, 0x73, 0x73, 0x69, 0x66, 0x69,
  0x65, 0x72, 0x5f, 0x31, 0x2f, 0x64, 0x65, 0x6e, 0x73, 0x65, 0x5f, 0x31,
  0x2f, 0x42, 0x69, 0x61, 0x73, 0x41, 0x64, 0x64, 0x00, 0x00, 0x00, 0x00,
  0x01, 0x00, 0x00, 0x00, 0x10, 0x00, 0x00, 0x00, 0xb2, 0xfe, 0xff, 0xff,
  0x00, 0x00, 0x00, 0x01, 0x10, 0x00, 0x00, 0x00, 0x10, 0x00, 0x00, 0x00,
  0x06, 0x00, 0x00, 0x00, 0x34, 0x00, 0x00, 0x00, 0xfc, 0xfd, 0xff, 0xff,
  0x24, 0x00, 0x00, 0x00, 0x69, 0x6f, 0x74, 0x5f, 0x72, 0x69, 0x73, 0x6b,
  0x5f, 0x63, 0x6c, 0x61, 0x73, 0x73, 0x69, 0x66, 0x69, 0x65, 0x72, 0x5f,
  0x31, 0x2f, 0x64, 0x65, 0x6e, 0x73, 0x65, 0x5f, 0x31, 0x2f, 0x4d, 0x61,
  0x74, 0x4d, 0x75, 0x6c, 0x00, 0x00, 0x00, 0x00, 0x02, 0x00, 0x00, 0x00,
  0x10, 0x00, 0x00, 0x00, 0x03, 0x00, 0x00, 0x00, 0x06, 0xff, 0xff, 0xff,
  0x00, 0x00, 0x00, 0x01, 0x10, 0x00, 0x00, 0x00, 0x10, 0x00, 0x00, 0x00,
  0x05, 0x00, 0x00, 0x00, 0x34, 0x00, 0x00, 0x00, 0x50, 0xfe, 0xff, 0xff,
  0x26, 0x00, 0x00, 0x00, 0x69, 0x6f, 0x74, 0x5f, 0x72, 0x69, 0x73, 0x6b,
  0x5f, 0x63, 0x6c, 0x61, 0x73, 0x73, 0x69, 0x66, 0x69, 0x65, 0x72, 0x5f,
  0x31, 0x2f, 0x64, 0x65, 0x6e, 0x73, 0x65, 0x5f, 0x31, 0x5f, 0x32, 0x2f,
  0x4d, 0x61, 0x74, 0x4d, 0x75, 0x6c, 0x00, 0x00, 0x02, 0x00, 0x00, 0x00,
  0x08, 0x00, 0x00, 0x00, 0x10, 0x00, 0x00, 0x00, 0x5a, 0xff, 0xff, 0xff,
  0x00, 0x00, 0x00, 0x01, 0x10, 0x00, 0x00, 0x00, 0x10, 0x00, 0x00, 0x00,
  0x04, 0x00, 0x00, 0x00, 0x34, 0x00, 0x00, 0x00, 0xa4, 0xfe, 0xff, 0xff,
  0x26, 0x00, 0x00, 0x00, 0x69, 0x6f, 0x74, 0x5f, 0x72, 0x69, 0x73, 0x6b,
  0x5f, 0x63, 0x6c, 0x61, 0x73, 0x73, 0x69, 0x66, 0x69, 0x65, 0x72, 0x5f,
  0x31, 0x2f, 0x64, 0x65, 0x6e, 0x73, 0x65, 0x5f, 0x32, 0x5f, 0x31, 0x2f,
  0x4d, 0x61, 0x74, 0x4d, 0x75, 0x6c, 0x00, 0x00, 0x02, 0x00, 0x00, 0x00,
  0x03, 0x00, 0x00, 0x00, 0x08, 0x00, 0x00, 0x00, 0xae, 0xff, 0xff, 0xff,
  0x00, 0x00, 0x00, 0x01, 0x10, 0x00, 0x00, 0x00, 0x10, 0x00, 0x00, 0x00,
  0x03, 0x00, 0x00, 0x00, 0x34, 0x00, 0x00, 0x00, 0xf8, 0xfe, 0xff, 0xff,
  0x27, 0x00, 0x00, 0x00, 0x69, 0x6f, 0x74, 0x5f, 0x72, 0x69, 0x73, 0x6b,
  0x5f, 0x63, 0x6c, 0x61, 0x73, 0x73, 0x69, 0x66, 0x69, 0x65, 0x72, 0x5f,
  0x31, 0x2f, 0x64, 0x65, 0x6e, 0x73, 0x65, 0x5f, 0x32, 0x5f, 0x31, 0x2f,
  0x42, 0x69, 0x61, 0x73, 0x41, 0x64, 0x64, 0x00, 0x01, 0x00, 0x00, 0x00,
  0x03, 0x00, 0x00, 0x00, 0x00, 0x00, 0x16, 0x00, 0x18, 0x00, 0x14, 0x00,
  0x00, 0x00, 0x10, 0x00, 0x0c, 0x00, 0x08, 0x00, 0x00, 0x00, 0x00, 0x00,
  0x00, 0x00, 0x07, 0x00, 0x16, 0x00, 0x00, 0x00, 0x00, 0x00, 0x00, 0x01,
  0x10, 0x00, 0x00, 0x00, 0x10, 0x00, 0x00, 0x00, 0x02, 0x00, 0x00, 0x00,
  0x5c, 0x00, 0x00, 0x00, 0x60, 0xff, 0xff, 0xff, 0x4c, 0x00, 0x00, 0x00,
  0x69, 0x6f, 0x74, 0x5f, 0x72, 0x69, 0x73, 0x6b, 0x5f, 0x63, 0x6c, 0x61,
  0x73, 0x73, 0x69, 0x66, 0x69, 0x65, 0x72, 0x5f, 0x31, 0x2f, 0x64, 0x65,
  0x6e, 0x73, 0x65, 0x5f, 0x31, 0x5f, 0x32, 0x2f, 0x52, 0x65, 0x6c, 0x75,
  0x3b, 0x69, 0x6f, 0x74, 0x5f, 0x72, 0x69, 0x73, 0x6b, 0x5f, 0x63, 0x6c,
  0x61, 0x73, 0x73, 0x69, 0x66, 0x69, 0x65, 0x72, 0x5f, 0x31, 0x2f, 0x64,
  0x65, 0x6e, 0x73, 0x65, 0x5f, 0x31, 0x5f, 0x32, 0x2f, 0x42, 0x69, 0x61,
  0x73, 0x41, 0x64, 0x64, 0x00, 0x00, 0x00, 0x00, 0x01, 0x00, 0x00, 0x00,
  0x08, 0x00, 0x00, 0x00, 0x00, 0x00, 0x16, 0x00, 0x1c, 0x00, 0x18, 0x00,
  0x00, 0x00, 0x14, 0x00, 0x10, 0x00, 0x0c, 0x00, 0x00, 0x00, 0x00, 0x00,
  0x08, 0x00, 0x07, 0x00, 0x16, 0x00, 0x00, 0x00, 0x00, 0x00, 0x00, 0x01,
  0x14, 0x00, 0x00, 0x00, 0x20, 0x00, 0x00, 0x00, 0x20, 0x00, 0x00, 0x00,
  0x01, 0x00, 0x00, 0x00, 0x3c, 0x00, 0x00, 0x00, 0x02, 0x00, 0x00, 0x00,
  0xff, 0xff, 0xff, 0xff, 0x03, 0x00, 0x00, 0x00, 0x04, 0x00, 0x04, 0x00,
  0x04, 0x00, 0x00, 0x00, 0x1e, 0x00, 0x00, 0x00, 0x73, 0x65, 0x72, 0x76,
  0x69, 0x6e, 0x67, 0x5f, 0x64, 0x65, 0x66, 0x61, 0x75, 0x6c, 0x74, 0x5f,
  0x6b, 0x65, 0x72, 0x61, 0x73, 0x5f, 0x74, 0x65, 0x6e, 0x73, 0x6f, 0x72,
  0x3a, 0x30, 0x00, 0x00, 0x02, 0x00, 0x00, 0x00, 0x01, 0x00, 0x00, 0x00,
  0x03, 0x00, 0x00, 0x00, 0x02, 0x00, 0x00, 0x00, 0x20, 0x00, 0x00, 0x00,
  0x04, 0x00, 0x00, 0x00, 0xf4, 0xff, 0xff, 0xff, 0x19, 0x00, 0x00, 0x00,
  0x00, 0x00, 0x00, 0x19, 0x0c, 0x00, 0x0c, 0x00, 0x0b, 0x00, 0x00, 0x00,
  0x00, 0x00, 0x04, 0x00, 0x0c, 0x00, 0x00, 0x00, 0x09, 0x00, 0x00, 0x00,
  0x00, 0x00, 0x00, 0x09
};

const unsigned int g_model_len = 3244u;
